00111001 10101010 00110000 01110011 
00100101 01111000 10100101 11100100 
10000000 11010011 00101110 10110000 
00001100 10101010 11111001 01000111 

00111101 00000101 00011001 10101000 
01011001 00001100 01000010 00000100 
11110110 00000010 00000011 00100100 
00011011 10010100 01000101 10101011 

01101000 01100110 01010001 01001001 
10101101 10000011 00101111 00001001 
10001110 10100001 10110010 11111000 
00011001 01111010 11111111 01111010 

00100000 11101110 11001100 11011111 
11111110 01010110 00010011 01111111 
11000011 10010110 10001110 01111010 
11100011 01010000 10110101 10010000 

01101100 10110010 00100110 00100110 
10001101 00011111 00000011 10110101 
01011110 10010110 10110001 00000110 
00000011 11110001 11101010 00110001 

11110111 00011000 01111111 11110101 
00110001 01011001 01010011 10101011 
10011101 10100011 01101010 00111000 
01101011 11110000 10000010 10111000 

10010001 11010110 11001100 00011101 
00111110 01011010 01100100 01111010 
11110111 01001101 00111010 01011011 
11111111 10000011 11010101 01000101 

01111100 01101000 10010100 11100100 
00000001 11111011 00101000 11010101 
01011000 10111000 01000111 10101001 
10000000 00111110 00101000 11010001 


11110010 01100111 10101010 00001011 
11001010 00001000 01001110 11100101 
00011100 01110101 00100001 00100111 
00100110 01010000 10101000 00010001 

11001011 11111011 10111110 11000000 
01010011 10111011 00101010 00001011 
10001100 00000011 10010000 00000011 
10100100 11110110 11110000 00000111 

10011110 00001010 01101111 00000001 
11010110 10010011 11101101 00100001 
10110000 10100001 10011101 11011011 
10000001 11100111 01011100 10101000 

00000000 00000011 01010000 10000100 
10000101 11100110 01100001 01111011 
01101101 01111011 11011110 01010001 
01110000 11100111 11100000 00101000 

11000011 10010111 11010110 00011011 
10100110 11000100 00101101 01001001 
10111110 00010001 11111100 11111011 
00111010 10010000 00101101 11010100 

00011110 00110110 00000100 10111101 
11001111 11010011 00001000 11100111 
11111101 00111111 01011101 11001111 
11101111 11001001 00001101 11101111 

10011111 00001001 10111000 00100000 
11001011 00111010 11111000 10001100 
11010011 11000110 10001100 10110111 
00101100 00101100 00010010 10001010 

11101111 11000000 01101111 10001001 
11001000 10110010 11100000 00110010 
00101100 11100001 00000101 00010101 
01110100 01111000 00110111 00100110 


11111100 10011110 01011001 01001000 
11001110 10011000 11100101 00010000 
11101011 01101000 01101111 10001010 
01100001 01101010 00011000 10001011 

00001001 00111110 01111111 01010010 
11100010 11100101 00011101 01100111 
01000101 01010101 11001010 00110110 
10101100 10011101 00000001 01101010 

00000111 01100001 01110101 10101001 
11111000 01000011 00001011 00110110 
10000110 00001011 10100111 10011100 
10110010 01000101 00001000 00101000 

11010011 01101101 10001010 00011010 
00110101 11001011 01011000 11001110 
00010101 01001011 00100101 10000111 
11011101 01011011 11001010 10100111 

11010110 00001101 10111111 10000000 
10010000 01001010 11110010 01011110 
11001111 00011101 01111111 10111100 
01111101 11011011 00101110 01100100 

00111010 10111000 01010100 11111000 
10101101 10101001 11110100 00110011 
00101100 00100010 00011100 10100100 
10010011 00110000 10011100 00001111 

11101100 11011110 01010001 11101111 
00101000 01010011 00001000 00110000 
01101000 01111000 11111000 11000100 
00110100 10001111 11001001 11100001 

10111010 00010001 00110100 10011111 
01011010 10011011 10010001 11001001 
11101101 01110001 01111011 01000000 
11101011 10000011 00100000 00001100 


01010011 10011001 00101111 11100100 
11110011 10001101 10101100 01000110 
00101100 11010010 10001100 11101111 
10110011 00010101 01110011 01010001 

11111111 01110000 10101011 11100110 
11001110 11100001 00110111 00001101 
00011001 00110101 10110101 01100101 
11110111 00011100 10100010 00110000 

01110111 01000010 10001011 10100110 
10110000 11110111 00111100 00110001 
11000101 01000010 11110100 11000000 
00111100 10011001 01000101 01100111 

11110100 01001111 11011100 00000011 
01111101 10010001 10010001 11111011 
10100011 11110001 01110010 00001110 
10000001 00011001 00010011 01101000 

00100100 01110111 10001011 00010111 
11101011 11111100 10001001 11100100 
10011001 10100000 10100011 00100010 
11111001 11101100 10001110 01110100 

10010010 01100101 00110000 11101100 
11000100 10100101 10100111 10111000 
10100000 00100100 11111011 10001111 
01101001 11010110 11110011 11010010 

00011000 00100010 00000001 10110111 
00010101 01110101 00001101 10011111 
11011100 00100001 01001101 01111100 
11011011 11111101 11011010 10110101 

11011100 00101110 00011101 01000010 
11111000 11111101 11101110 10101100 
11010010 00111001 11101111 01000111 
11010101 01001001 10000101 10000100 


10000010 11111001 10001010 11101010 
00101110 01101111 11111011 00000100 
11010000 10011001 10010101 01000101 
11011101 01101110 10011011 00110101 

11010101 11111111 10100000 11000001 
11010000 10001110 01100111 01111001 
00000110 11111100 00110101 10101011 
10110000 10000100 01100100 11000110 

00011011 11101101 11111101 00100011 
00101100 10100010 11111100 11101000 
00000101 00101010 11110110 01011110 
10001111 01100011 10011000 10010011 

00100101 10011100 01000111 11101110 
10001111 10100101 01001100 10101010 
01111111 01110101 01100111 00010000 
10001011 10001001 01011111 00111001 

11010111 00010001 10100100 11100100 
01000000 11001100 00011110 01011101 
01011010 11101011 10010101 11111101 
01000001 11101111 01011111 10000001 

01110011 10011110 10110010 10100010 
11000110 00001100 10111000 11001101 
10111000 01100000 01011110 00010000 
00010000 11110100 01010000 00000011 

00100111 01000011 01010101 11100001 
01011001 01101000 01010011 11100011 
00101001 11110010 00111010 00100101 
01101100 11101011 00100111 01011110 

00110010 01101101 10110001 00010011 
11011000 00111110 11000110 10010111 
00011010 01001110 01001000 00110010 
10001000 11010010 11100110 11011110 


10110101 10100110 01011101 11110011 
01111101 10010000 11001110 11000000 
10100101 10100000 10101110 01001000 
01001000 11010101 01110101 11000111 

11000101 01110110 10110000 11110001 
01111000 01110101 00000100 01010011 
10011000 00010011 10111001 10100011 
11010000 10110001 00111010 11010110 

10000011 01000110 00010001 11111001 
10101000 01001011 10100011 01100011 
01101010 10011111 01000010 01000100 
01011100 10001100 11000001 01100010 

01011010 00001001 11110111 11011010 
00010100 01010001 00101001 00001100 
00000100 10000001 11111001 01011010 
11100001 01010000 01010010 10100000 

01011111 10000111 10101001 11111111 
00001110 10100111 10101000 00101100 
11100100 11001110 10011101 10110100 
10100000 01011100 11000000 01100101 

10010011 11101000 01001000 10101101 
00001000 00001001 10101011 10000110 
11011101 00011000 00011011 00001101 
11011100 00011101 11110001 10100000 

00011011 00000010 01001011 00110001 
01101001 01101011 00101011 00000101 
10000010 10111010 11101010 10010011 
10101111 10001100 10110000 00100010 

10001110 11111011 00000100 01110000 
01110000 10110110 10010100 00001001 
01011000 10111101 00001111 00000111 
11110010 10011011 00010101 11011100 


00101010 11011011 10010010 11100110 
00011110 11001111 11011111 10001101 
11100100 00000000 00001111 01111000 
11001111 10100010 00010001 10011001 

10010000 11001000 10011100 10010000 
11011100 00111111 01111100 00011010 
11000100 01101101 11100110 01111011 
11001111 10110101 11010000 00011111 

11111000 00111001 00111000 01000111 
11100100 11101001 10111111 11000001 
10001101 00000101 01101001 11110000 
00010101 00011001 01101110 01110110 

11001101 00010110 01100111 10010111 
00101011 11101111 10101011 10111100 
01011110 11111110 10100100 11110100 
00000110 11000100 10000100 01110011 

10001101 01101000 10001010 00001011 
01100111 00101110 00010110 00100000 
01110000 01010000 01000010 10001101 
11011000 00111010 01100110 11010001 

10000101 00000000 10010011 11111100 
10000101 01111101 10000110 00101001 
00000100 01111100 10011010 00111101 
01011001 11011010 01110000 10011000 

10001011 00001110 10110001 00000100 
11110100 11000000 01101111 10010001 
10001111 11111100 01100001 10010100 
00010011 00000100 11101011 11100011 

11001111 10000010 00110111 01000100 
01010110 00010010 11000101 00010001 
10110001 11001110 01110100 00100101 
00010001 11001010 01111101 00000010 


00000101 10011110 00000010 10000110 
11111111 00011101 00111101 01011010 
10010001 01011111 11001000 11001101 
10100001 11001111 01010010 01000111 

01010101 10110110 10010000 01101000 
11101001 10001111 11001000 10010110 
10101010 01100000 01111011 10100110 
01001001 01100000 11111100 00111011 

01101101 10001101 10011100 01101011 
11000110 00011011 01100110 01011110 
11100000 10111111 10111000 01001010 
01011011 00110100 01010011 11110110 

01000011 00111001 11011000 01001111 
00111100 11010100 10100001 00110010 
11101100 01101101 10000100 11001010 
10110101 10001110 01110110 01110110 

01010101 01010110 10111001 00000001 
01000000 00101011 00000000 00011000 
11101011 11011101 11010100 01011110 
01001011 00111101 01000111 11000000 

11110000 00001000 00011111 10100001 
00110110 11001000 00000100 10111111 
11010111 01000100 10011110 10011011 
01001000 01100010 00110111 10100111 

11110011 10110000 00001000 01100101 
00010101 01110010 10100100 10001100 
11010000 00101101 11101110 10011000 
01001011 11100101 11100001 11001010 

11000000 11001010 01001101 11000011 
01100011 11110111 00001111 10101110 
11110101 01000001 11000100 11111001 
10111001 10101011 11011011 01010000 


